#version: 0.2
Ġ t
i n
Ġ a
h e
r e
o n
t i
e r
Ġ c
e n
a l
Ġ s
Ġt he
e s
Ġ p
o r
a n
a t
i s
in g
Ġ w
ti on
Ġ d
Ġ m
i c
e d
Ġ in
Ġ o
i t
a r
Ġ f
Ġ b
r o
n d
l e
o u
Ġ re
Ġa nd
Ġt h
e c
l y
Ġo f
en t
o m
Ġt o
a tion
Ġ e
s t
v e
Ġ h
a c
Ġ l
a s
o l
Ġc on
e t
i f
u l
i g
i l
Ġ n
u r
i m
o w
i d
T he
c e
s e
ti c
Ġth at
m ent
r a
Ġc om
Ġp ro
Ġ g
v er
Ġs t
Ġf or
Ġ u
i r
it h
t er
' s
re s
Ġm o
Ġw h
Ġw ith
t s
e m
at e
Ġb e
s i
u c
u t
he r
o t
p p
ic al
Ġ is
Ġa s
a b
Ġe x
it y
a in
q u
Ġcom p
Ġs p
Ġd e
Ġ on
Ġa c
e re
o p
es s
a d
a m
r i
Ġ v
is t
k e
ation s
Ġ it
Ġ or
l d
if ic
Ġ The
u re
ti ve
g e
Ġ r
n t
d i
Ġ I
er s
o c
al ly
Ġa l
Ġ y
an d
ou t
an t
Ġc h
u s
ro m
Ġa n
e l
a y
o d
Ġa b
Ġw he
Ġa pp
Ġsp ec
o g
h is
Ġs u
Ġ T
Ġc an
Ġcon t
Ġl i
h i
tion s
f f
Ġ en
ou ld
p er
u m
Ġf rom
ig h
Ġy ou
Ġ C
Ġ S
i al
Ġa re
ro u
Ġ A
g h
o s
Ġp ar
i z
Ġmo re
Ġthe ir
es t
if f
ig n
Ġ im
Ġ le
t u
Ġth is
Ġd iff
c h
t h
ou s
t her
Ġs y
i es
Ġa d
l u
ar y
p l
at ed
Ġ he
or k
en d
Ġli ke
Ġw as
Ġab out
Ġ 1
Ġb y
a p
Ġre l
en ce
Ġs e
u n
v id
Ġu n
an ce
Ġp r
Ġh a
ĠT his
Ġ -
Ġb et
H ow
Ġin t
ve l
or m
i on
ac t
Ġn e
Ġspec ific
om e
Ġst r
Ġdiff ere
al l
ec t
Ġin c
tic al
en ti
si on
i re
v ol
Ġcon s
Ġ W
Ġthe se
Ġt r
g es
ul ar
v en
Ġin f
an s
at es
ac h
ic h
st em
i ti
igh t
Ġcomp le
c es
Ġth an
w e
Ġre s
c t
Ġp re
a re
Ġm a
Ġs h
Ġw ould
ec h
Ġsy stem
Ġthe y
Ġ B
Ġim p
Ġapp ro
Ġa t
d ing
ul t
ar i
nd er
i le
in e
or t
ab le
Ġ M
we en
Ġbet ween
ment s
Ġh ow
c ess
m s
Ġre p
a ge
Ġwh ich
Ġp er
or s
Ġu nder
rou gh
Ġs ign
Ġb ec
ol og
Ġin ter
st r
Ġ "
Ġha ve
v es
tion al
Ġm e
Ġre g
Ġt ra
Ġe ff
Ġth rough
Ġwhe n
Ġ P
k ing
Ġc re
e ver
Ġwh ile
Ġo ther
Ġd o
ou r
Ġb ut
res ent
Ġdiffere nt
on g
or y
Ġd is
How ever
Ġpar tic
t ain
y p
Ġsign ific
Ġin d
u al
Ġcomple x
Ġ E
at ing
il ity
ur al
Ġ H
Ġ qu
Ġp o
d uc
ar d
Ġw ork
o re
Ġa r
Ġc l
Ġal l
Ġn ot
vel op
Ġd et
il l
u st
Ġsignific ant
Ġp ol
Ġde velop
e w
a il
Ġp l
Ġh is
hi p
Ġre qu
Ġo ver
c i
el l
Ġ j
ical ly
Ġcom m
a v
ation al
at her
u e
l ic
a tive
ur ing
ot h
Ġpartic ular
at er
Ġ R
Ġrep resent
e ar
v ed
ter n
Ġwhe re
Ġe m
Ġin vol
Ġit s
' t
he n
Ġg en
Ġ G
iti es
Ġm an
v ing
p le
Ġre m
Ġre f
Ġs ome
ab l
Ġd ist
i a
ri b
res s
Ġre c
a u
Ġmo d
Ġc o
is h
Ġw e
Ġ F
Ġt yp
Ġs uc
Ġm et
y s
Ġ (
' m
b le
a st
Ġpro vid
ra m
Ġyou r
Ġ 2
Ġd es
Ġ D
Ġp at
p h
Ġg o
Ġp h
en c
am e
ec on
Ġm ain
l i
Ġ ro
Ġr ather
Ġu s
Ġwh at
Ġd ec
Ġpro cess
Ġ1 9
Ġ k
Ġs er
as s
Ġinc lu
Ġb oth
ul ti
Ġtr ans
he s
Ġex p
u d
Ġappro ach
u tion
Ġeff ec
Ġle g
ou nd
Ġ L
Ġv ari
olog ical
Ġf act
p end
uc t
er n
id e
0 0
Ġw ere
it e
Ġh as
Ġrequ ire
Ġac tu
on e
Ġch an
si ve
as e
ech an
Ġt im
Ġp e
Ġd i
Ġm echan
le c
ou gh
p t
Ġd uring
u nd
Ġunder st
ac e
Ġ N
ou nt
f orm
ac k
Ġs oc
a g
as ed
Ġparticular ly
' re
au se
ment al
ro s
Ġsu b
Ġd em
Ġinf lu
er m
Ġ est
e x
Ġrel ations
a ti
o se
Ġh ist
Ġpr ac
Ġde f
ent s
t en
Ġs im
iz ed
econ om
or d
Ġm ay
t e
Ġunderst and
ar k
he d
T his
Ġ econom
r ic
Ġa g
ate g
Ġcon f
Ġmain tain
Ġest abl
Ġm ight
Ġrelations hip
t y
c ur
is m
Ġf und
t ing
Ġthe m
hi le
Ġtra di
on d
ech n
Ġo per
an c
i ous
op le
is ion
Ġo b
ros s
si tion
Ġrem ain
Ġdo es
Ġfor m
Ġpol i
Ġt echn
un c
ab ility
Ġsu g
Ġs c
Ġ U
Ġcons id
e ed
Ġas s
Ġp ers
Ġne ed
o od
l ow
Ġb ro
Ġint o
l l
Ġsystem s
a w
Ġe le
b er
en s
Ġpe ople
an g
Ġpat tern
Ġcon di
Ġactu ally
on s
Ġp ot
Ġdet ail
Ġn at
Ġth ough
Ġfact ors
f ul
Ġc ould
Ġc ol
Ġinclu ding
ti m
a tic
v al
re e
u b
re at
e f
e g
Ġmet h
enti al
Ġfund a
Ġsu pp
ic i
u res
Ġpoli tical
Ġon e
Ġd ire
Ġo ut
ow er
Ġc ap
r y
s o
all en
Ġc ult
Ġm ulti
Ġch allen
Ġeconom ic
g an
Ġmeth od
Ġ if
Ġin s
Ġ J
Ġc ent
Ġex per
Ġf unc
a k
ver s
Ġm ed
Ġbro ad
Ġgen er
Ġf ram
Ġde pend
ar ly
Ġa ut
Ġstr ateg
h at
n ow
Ġ ra
re n
Ġ ke
Ġe vol
Ġbe en
Ġv al
Ġhist or
in d
Ġbec ause
Ġbe ing
Ġch ar
p or
Ġstr uct
ti tu
ti v
Ġal so
l es
Ġres p
Ġwh o
Ġac ross
Ġqu es
Ġin di
d ic
iz ation
Ġpro duc
ear s
is ms
Ġh ad
ver n
Ġsoc ial
e p
Ġex t
Ġper i
Ġlike ly
i an
Ġpro per
Ġs o
ec tion
Ġcont ro
Ġdevelop ment
ar ch
ay s
Ġthe re
Ġp op
Ġt er
vid ual
Ġc r
Ġleg al
ac ter
ew ork
Ġo c
Ġfram ework
Ġcon c
al s
ic e
ir on
Ġsuc h
Ġs ur
Ġperi od
s ure
ul ation
Ġindi vidual
Ġbe h
Ġof f
is e
Ġe ven
Ġan al
Ġ However
ĠC h
om es
re nt
Ġdire ct
is tic
ĠW hile
Ġbroad er
is hed
Ġm at
Ġwith in
Ġreg ion
Ġtim e
Ġle ad
ti es
ro w
Ġgo vern
er g
enti ally
rou nd
Ġa m
Ġd id
Ġmechan isms
u es
Ġques tion
Ġinc re
Ġex pl
Ġcondi tions
Ġc ur
og n
it s
Ġcult ural
are d
Ġa ff
se l
Ġad v
Ġl im
Ġ K
Ġtyp ically
Ġpro t
Ġpr im
Ġmo st
v iron
ere d
i or
ate ly
in al
ing s
p ar
as es
Ġcomm un
Ġconsid er
Ġhistor ical
i e
Ġen viron
Ġcont in
Ġrepresent s
d e
Ġk now
ver y
he m
p s
al th
Ġm ark
Ġall ow
enc y
er tain
Ġdiffere n
in es
Ġ O
in ation
Ġun sure
Ġac c
Ġprovid e
ra in
Ġu se
Ġinf orm
Ġchar acter
w ard
t ed
Ġrel ig
Ġexper i
Ġdetail ed
Ġor gan
Ġinflu ence
o b
p e
Ġoc cur
Ġfunda mental
il it
Ġpattern s
a ges
Ġdist in
Ġp res
Ġc or
Ġo p
Ġinvol ves
k s
Ġwith out
it ed
Ġimp ort
Ġpar t
ar g
on str
Ġind eed
Ġmulti ple
Ġke y
Ġc ount
Ġp ower
v i
ac hes
n ing
r it
Ġ2 0
Ġhe l
r ation
Ġn um
Ġl aw
p re
Ġne w
Ġre se
st an
olog y
ec ts
il d
Ġt w
m er
Ġsug ges
c ed
Ġl ong
r an
Ġvari ous
Ġat t
Ġwhe ther
Ġb l
tive ly
Ġv i
Ġpr in
Ġt a
Ġh um
Ġsugges ts
i ed
al ity
Ġst and
Ġtradi tional
Ġm em
Ġdem onstr
Ġme as
rib ut
Ġma king
Ġl oc
Ġj ust
Ġse ver
Ġrelig ious
ou n
Ġsignificant ly
Ġma ke
Ġpro g
Ġh igh
Ġcon n
iz e
Ġcontro l
Ġcont ex
Ġ V
Ġst u
Ġanal ys
Ġbeh av
Ġs ame
Ġn o
Ġd at
Ġle vel
ir st
o y
ĠI n
Ġestabl ished
re d
Ġcom b
w n
Ġu p
Ġappro aches
ra ph
Ġinform ation
h y
en ces
ĠThe se
Ġg rou
Ġme an
ol d
ad e
Ġprin ci
Ġdes ign
Ġof ten
r u
Ġstruct ure
om et
Ġdef in
Ġpol ic
Ġsuc cess
Ġs it
Ġpro ble
enti f
Ġmod ern
Ġanalys is
Ġ id
Ġspec if
tu res
h or
Ġsupp ort
Ġw ill
Ġchan ges
ir c
Ġan y
Ġevol ution
ari ly
st s
f ter
Ġmod el
Ġdet erm
p tion
Ġpers on
er v
v ent
Ġhe alth
i p
Ġst ate
i qu
Ġe qu
Ġtw o
n ess
Ġrese arch
Ġe ach
ect ed
ti s
in t
Ġper form
Ġdat a
Ġsever al
Ġsh ow
W hat
n ot
Ġmark et
Ġc ar
u ro
Ġth ose
ub lic
Ġe arly
Ġb en
m in
ilit ary
Ġt reat
res sion
le ment
Ġint eg
Ġf ound
Ġspecif ically
ic s
Ġf in
Ġmo ve
i ly
Ġwh y
Ġf ol
Ġcur rent
r on
j or
igh ts
Ġc ell
Ġad d
Ġe vid
Ġs m
Ġus ed
Ġg row
Ġg et
Ġdis c
Ġinter n
Ġm ilitary
ar ding
Ġ ess
Ġw or
and s
Ġcl ass
Ġpo sition
r al
Ġex ist
Ġt em
og raph
Ġremain s
Ġimport ant
Ġcan not
Ġman y
Ġdec ision
ac y
er ing
Ġa fter
ce pt
Ġma jor
Ġo wn
Ġen ti
y ond
Ġrec ogn
o o
Ġf irst
mer ic
Ġf e
Ġa v
it er
Ġhel p
hi e
Ġd on
Ġph ys
Ġsy m
Ġc ertain
Ġbec ome
y n
le ct
at ory
Ġnat ure
Ġm on
Ġon ly
Ġcomp ar
Ġr is
Ġaut hor
Ġbe yond
in ing
Ġben ef
et y
h ing
Ġfunc tion
Ġapp lic
an ts
S o
Ġele ct
Ġf ac
Ġfol low
ic ation
Ġsit u
Ġd oc
Ġc irc
Ġbehav ior
titu tional
Ġunderstand ing
Ġin iti
y ing
ri es
Ġ ed
Ġor ig
m e
il ities
Ġex am
Ġb ased
le ar
Ġac hie
Ġw ar
Ġpro f
Ġcre ate
om en
Ġmethod s
Ġhum an
ec tive
Ġbet ter
it al
pl es
Ġpre dic
Ġc are
oc us
Ġm y
ĠA meric
Ġpot ential
ur y
Ġcomp ared
in ed
Ġac tiv
g n
Ġob s
Ġs et
Ġf am
Ġmaintain ing
Ġg i
Ġsh if
Ġre duc
Ġb u
Ġd ue
Ġs ch
re ad
in s
Ġis s
Ġp ri
l ed
i tion
Ġprac tical
Ġb i
e y
i tive
sel f
Ġ her
Ġcont ribut
or ies
Ġbec ame
Ġprocess es
Ġt e
b ers
Ġresp on
Ġf ocus
ul ations
Ġim m
I n
Ġevid ence
ec ess
Ġag ain
a us
Ġimp lement
Ġw ell
Ġconc ern
Ġcre ates
an e
Ġcre ating
Ġp ress
ang u
Ġestabl ish
Ġs ci
Ġcontin u
b ility
Ġp ur
ĠW hen
Ġus ing
Ġstand ard
ol s
ti ce
Ġre as
Ġre al
si ble
Ġadd ress
Ġpot entially
d u
Ġl if
Ġspec ial
al e
om m
Ġc ri
at ure
Ġpre c
Ġcomple te
Ġro le
Ġg l
Ġl ater
Ġad ap
ut ure
Ġ1 8
Ġref lec
en sion
Ġo pp
Ġg e
o st
ent ly
at h
g ing
ic es
Ġn orm
our ces
Ġcomm on
ĠS t
Ġs ti
Ġf uture
Ġtrans form
Ġp ublic
Ġter ms
Ġw ater
Ġenti re
) ,
e tic
Ġchallen ges
a f
is ts
Ġapp ears
Ġg ra
Ġs ol
Ġun c
x im
ar s
Ġs ec
Ġm us
Ġcre ated
Ġf ul
uc h
Ġint ere
Ġout c
Ġgovern ment
Ġl angu
Ġa round
Ġind ic
erg y
Ġm ater
ven ess
Ġc all
Ġg u
i v
Ġdes c
Ġen d
ly ing
Ġn ecess
pl oy
Ġha pp
ter s
Ġimp ro
ar m
Ġdiff ic
in ce
Ġlevel s
Ġme ans
od y
se qu
i x
f ore
j ect
Ġdirect ly
Ġp resent
ic ial
f or
Ġy ears
Ġmat hem
Ġab ility
Ġcomp re
Ġl ess
Ġreflec ts
Ġcom e
Ġeff ici
Ġsm all
Ġstr uc
Ġaff ect
Ġimp act
Ġcompre hen
ĠU n
Ġsim il
Ġprac tic
ie ld
n g
os s
Ġwork s
Ġ es
ar t
Ġpop ulation
Ġen g
Ġ 3
r ing
s y
Ġtreat ment
Ġstruc tures
Ġc al
enc ed
ti al
ver se
Ġcont ra
uro pe
ce p
Ġch ild
Ġen c
Ġinvol ve
ti veness
ti l
Ġagain st
Ġchan ge
Ġman age
Ġd yn
Ġse e
Ġe l
Ġsti ll
Ġsh ould
Ġmeas ure
Ġpat h
Ġh ig
Ġta x
Ġcomprehen sive
Ġm ade
di es
Ġthe ore
Ġf l
p os