#version: 0.2
Ġ t
i n
Ġ a
h e
r e
o n
t i
e r
Ġ c
e n
a l
Ġ s
Ġt he
e s
Ġ p
o r
a n
a t
i s
in g
Ġ w
ti on
Ġ d
Ġ m
i c
e d
Ġ in
Ġ o
i t
a r
Ġ f
Ġ b
r o
n d
l e
o u
Ġ re
Ġa nd
Ġt h
e c
l y
Ġo f
en t
o m
Ġt o
a tion
Ġ e
s t
v e
Ġ h
a c
Ġ l
a s
o l
Ġc on
e t
i f
u l
i g
i l
Ġ n
u r
i m
o w
i d
T he
c e
s e
ti c
Ġth at
m ent
r a
Ġc om
Ġp ro
Ġ g
v er
Ġs t
Ġf or
Ġ u
i r
it h
t er
' s
re s
Ġm o
Ġw h
Ġw ith
t s
Ġd e
at e
Ġb e
s i
u c
u t
he r
o t
p p
ic al
Ġ is
Ġa s
a b
Ġe x
it y
a in
q u
Ġcom p
Ġs p
e m
Ġ on
Ġa c
e re
o p
es s
a d
a m
r i
Ġ v
is t
k e
ation s
Ġ it
Ġ or
l d
if ic
Ġ The
u re
ti ve
g e
Ġ r
n t
d i
Ġ I
er s
o c
al ly
Ġa l
Ġ y
an d
ou t
an t
Ġc h
u s
ro m
Ġa n
e l
a y
o d
Ġw he
Ġa b
Ġa pp
Ġsp ec
o g
h is
Ġs u
Ġ T
Ġc an
Ġcon t
Ġl i
h i
tion s
f f
Ġ en
ou ld
u m
p er
Ġf rom
ig h
Ġy ou
Ġ C
Ġ S
i al
Ġa re
ro u
Ġ A
g h
o s
Ġp ar
i z
Ġmo re
Ġthe ir
es t
if f
ig n
Ġ im
Ġ le
t u
Ġth is
Ġd iff
c h
t h
ou s
t her
Ġs y
i es
Ġa d
l u
ar y
p l
at ed
Ġ he
or k
Ġli ke
en d
Ġw as
Ġab out
Ġ 1
Ġb y
a p
Ġre l
en ce
Ġs e
u n
v id
Ġu n
an ce
Ġp r
Ġh a
ĠT his
Ġ -
Ġb et
H ow
Ġin t
ve l
or m
i on
ac t
Ġn e
Ġspec ific
om e
Ġst r
Ġdiff ere
al l
ec t
Ġin c
tic al
en ti
si on
i re
v ol
Ġcon s
Ġ W
Ġthe se
Ġt r
g es
ul ar
v en
Ġin f
an s
at es
ac h
ic h
i ti
st em
igh t
Ġcomp le
c es
Ġth an
Ġre s
w e
c t
Ġp re
a re
Ġm a
Ġs h
Ġw ould
ec h
Ġsy stem
Ġthe y
Ġ B
Ġim p
Ġa t
Ġapp ro
d ing
ul t
ar i
nd er
i le
in e
or t
ab le
Ġ M
we en
Ġbet ween
ment s
Ġh ow
c ess
m s
Ġre p
Ġwh ich
a ge
or s
Ġp er
Ġu nder
rou gh
Ġs ign
Ġb ec
ol og
Ġin ter
st r
Ġ "
Ġha ve
v es
tion al
Ġm e
Ġre g
Ġt ra
Ġe ff
Ġth rough
Ġwhe n
Ġ P
Ġc re
k ing
e ver
Ġwh ile
Ġo ther
Ġd o
ou r
Ġb ut
res ent
Ġdiffere nt
on g
or y
Ġd is
How ever
Ġpar tic
t ain
y p
Ġsign ific
Ġin d
u al
Ġcomple x
Ġ E
at ing
il ity
ur al
Ġ H
Ġp o
Ġ qu
d uc
ar d
Ġw ork
o re
Ġa r
Ġc l
Ġal l
vel op
Ġn ot
Ġd et
il l
u st
Ġsignific ant
Ġp ol
Ġde velop
e w
a il
Ġp l
Ġh is
Ġre qu
hi p
Ġo ver
c i
el l
Ġ j
ical ly
Ġcom m
a v
ation al
at her
u e
a tive
l ic
ur ing
ot h
Ġpartic ular
Ġ R
at er
Ġrep resent
e ar
v ed
ter n
Ġwhe re
Ġe m
Ġin vol
Ġit s
' t
he n
Ġ G
Ġg en
iti es
Ġm an
v ing
p le
Ġre m
Ġre f
Ġs ome
ab l
Ġd ist
i a
ri b
res s
Ġre c
a u
Ġmo d
Ġc o
is h
Ġw e
Ġ F
Ġt yp
Ġm et
Ġs uc
y s
Ġ (
' m
b le
a st
Ġpro vid
ra m
Ġyou r
Ġ 2
Ġd es
Ġ D
Ġp at
p h
Ġg o
Ġp h
en c
am e
ec on
Ġm ain
l i
Ġ ro
Ġr ather
Ġu s
Ġwh at
Ġd ec
Ġpro cess
Ġ1 9
Ġ k
Ġs er
as s
Ġinc lu
Ġb oth
ul ti
Ġtr ans
he s
Ġex p
u d
Ġappro ach
u tion
Ġeff ec
Ġle g
ou nd
Ġ L
Ġv ari
olog ical
Ġf act
er n
uc t
p end
id e
0 0
Ġw ere
it e
Ġh as
Ġrequ ire
Ġac tu
on e
Ġch an
si ve
as e
ech an
Ġt im
Ġp e
Ġd i
Ġm echan
le c
ou gh
p t
Ġd uring
u nd
Ġunder st
Ġ N
ac e
ou nt
f orm
Ġs oc
ac k
a g
as ed
Ġparticular ly
' re
au se
ment al
ro s
Ġsu b
Ġde m
Ġinf lu
er m
Ġ est
e x
Ġrel ations
a ti
o se
Ġh ist
Ġpr ac
Ġde f
ent s
iz ed
t en
Ġs im
econ om
or d
Ġm ay
t e
Ġunderst and
ar k
he d
T his
Ġ econom
r ic
Ġa g
ate g
Ġcon f
Ġmain tain
Ġest abl
Ġm ight
Ġrelations hip
t y
is m
c ur
Ġf und
Ġthe m
t ing
Ġtra di
hi le
on d
ech n
Ġo per
an c
i ous
is ion
op le
Ġo b
si tion
ros s
Ġpol i
Ġrem ain
Ġfor m
Ġdo es
Ġt echn
un c
ab ility
Ġsu g
Ġs c
Ġ U
e ed
Ġcons id
Ġas s
Ġp ers
Ġne ed
o od
Ġb ro
l ow
Ġint o
Ġsystem s
l l
a w
Ġe le
b er
en s
Ġpe ople
an g
Ġpat tern
Ġcon di
Ġactu ally
on s
Ġp ot
Ġdet ail
Ġn at
Ġth ough
Ġfact ors
Ġc ol
f ul
Ġc ould
Ġinclu ding
ti m
a tic
v al
e f
u b
re at
re e
e g
Ġmet h
enti al
Ġfund a
Ġsu pp
ic i
Ġpoli tical
u res
Ġon e
Ġo ut
Ġd ire
ow er
Ġc ap
r y
all en
s o
Ġc ult
Ġm ulti
Ġch allen
Ġeconom ic
Ġmeth od
g an
Ġin s
Ġ if
Ġ J
Ġc ent
Ġex per
Ġf unc
a k
ver s
Ġm ed
Ġbro ad
Ġf ram
Ġde pend
Ġgen er
ar ly
Ġstr ateg
Ġa ut
h at
n ow
Ġ ra
re n
Ġ ke
Ġe vol
Ġbe en
Ġhist or
Ġv al
in d
Ġbec ause
p or
Ġbe ing
ti v
Ġch ar
Ġstr uct
ti tu
Ġal so
l es
Ġres p
Ġwh o
Ġac ross
Ġqu es
Ġin di
d ic
iz ation
Ġpro duc
ear s
is ms
Ġh ad
Ġsoc ial
ver n
e p
Ġex t
Ġper i
Ġlike ly
i an
Ġpro per
ec tion
Ġs o
Ġcont ro
Ġdevelop ment
ar ch
ay s
Ġthe re
Ġp op
Ġt er
vid ual
Ġc r
Ġleg al
ew ork
ac ter
Ġfram ework
Ġo c
Ġcon c
ic e
al s
ir on
Ġsuc h
Ġs ur
Ġperi od
s ure
ul ation
Ġbe h
Ġindi vidual
is e
Ġof f
Ġan al
Ġe ven
Ġ However
ĠC h
om es
re nt
Ġdire ct
is tic
ĠW hile
Ġbroad er
is hed
Ġm at
Ġreg ion
Ġwith in
Ġtim e
Ġle ad
ti es
ro w
Ġgo vern
er g
enti ally
rou nd
Ġa m
Ġd id
Ġmechan isms
u es
Ġques tion
Ġinc re
Ġex pl
Ġcondi tions
Ġc ur
og n
it s
Ġcult ural
are d
Ġa ff
se l
Ġ K
Ġad v
Ġl im
Ġpro t
Ġtyp ically
Ġpr im
Ġmo st
v iron
ere d
i or
ate ly
in al
ing s
p ar
as es
Ġcomm un
Ġhistor ical
Ġen viron
Ġconsid er
i e
Ġcont in
Ġrepresent s
d e
ver y
Ġk now
he m
p s
al th
Ġm ark
Ġall ow
enc y
er tain
in es
Ġdiffere n
Ġ O
in ation
Ġun sure
Ġac c
ra in
Ġprovid e
Ġu se
Ġinf orm
Ġchar acter
w ard
Ġrel ig
t ed
Ġexper i
Ġdetail ed
Ġor gan
Ġinflu ence
o b
p e
Ġoc cur
Ġfunda mental
il it
Ġpattern s
a ges
Ġdist in
Ġp res
Ġc or
Ġo p
Ġinvol ves
k s
Ġwith out
it ed
Ġimp ort
Ġpar t
ar g
on str
Ġind eed
Ġmulti ple
Ġke y
Ġc ount
Ġp ower
v i
ac hes
n ing
r it
Ġ2 0
Ġhe l
r ation
Ġn um
Ġl aw
p re
Ġne w
Ġre se
st an
il d
olog y
ec ts
Ġt w
m er
Ġsug ges
c ed
Ġl ong
Ġat t
Ġvari ous
r an
Ġwhe ther
Ġb l
Ġv i
tive ly
Ġpr in
Ġt a
Ġh um
Ġsugges ts
i ed
al ity
Ġst and
Ġtradi tional
Ġm em
Ġdem onstr
rib ut
Ġme as
Ġma king
Ġl oc
Ġj ust
Ġrelig ious
Ġse ver
ou n
Ġsignificant ly
Ġma ke
Ġpro g
Ġh igh
Ġcon n
iz e
Ġcontro l
Ġcont ex
Ġ V
Ġanal ys
Ġst u
Ġbeh av
Ġn o
Ġs ame
Ġd at
Ġle vel
o y
ĠI n
Ġestabl ished
ir st
Ġcom b
re d
w n
Ġu p
Ġinform ation
ra ph
Ġappro aches
h y
en ces
ĠThe se
Ġg rou
ad e
Ġme an
ol d
Ġprin ci
Ġof ten
Ġdes ign
r u
Ġstruct ure
om et
Ġpol ic
Ġdef in
Ġs it
Ġsuc cess
Ġmod ern
Ġpro ble
enti f
Ġanalys is
Ġ id
Ġspec if
tu res
h or
Ġsupp ort
Ġw ill
Ġchan ges
ir c
Ġan y
Ġevol ution
ari ly
st s
f ter
Ġmod el
Ġdet erm
p tion
er v
Ġpers on
v ent
Ġhe alth
i p
Ġst ate
i qu
Ġe qu
Ġtw o
n ess
Ġe ach
ect ed
Ġrese arch
in t
ti s
Ġdat a
Ġper form
Ġsever al
Ġsh ow
W hat
Ġmark et
n ot
Ġc ar
Ġth ose
u ro
ub lic
Ġe arly
m in
Ġb en
ilit ary
res sion
Ġt reat
le ment
Ġint eg
Ġf ound
Ġspecif ically
ic s
Ġmo ve
Ġf in
i ly
Ġwh y
Ġf ol
Ġcur rent
j or
r on
igh ts
Ġc ell
Ġad d
Ġs m
Ġe vid
Ġg row
Ġus ed
Ġinter n
Ġg et
Ġdis c
ar ding
Ġm ilitary
Ġ ess
Ġw or
and s
Ġcl ass
Ġpo sition
Ġex ist
r al
Ġt em
og raph
Ġremain s
Ġimport ant
Ġcan not
Ġdec ision
Ġman y
ac y
Ġa fter
er ing
ce pt
Ġma jor
Ġo wn
Ġen ti
y ond
Ġrec ogn
o o
Ġf irst
Ġf e
mer ic
hi e
Ġhel p
Ġa v
Ġd on
it er
Ġph ys
Ġc ertain
Ġsy m
Ġbec ome
y n
le ct
at ory
Ġnat ure
Ġm on
Ġon ly
Ġcomp ar
Ġr is
Ġaut hor
in ing
Ġbe yond
et y
Ġben ef
h ing
Ġfunc tion
an ts
Ġapp lic
S o
Ġf ac
Ġele ct
Ġfol low
ic ation
Ġsit u
Ġd oc
Ġc irc
Ġbehav ior
Ġunderstand ing
titu tional
Ġin iti
Ġ ed
ri es
y ing
Ġor ig
m e
il ities
Ġex am
Ġb ased
Ġac hie
Ġw ar
le ar
Ġpro f
Ġcre ate
om en
Ġmethod s
Ġhum an
ec tive
it al
Ġbet ter
pl es
Ġpre dic
Ġc are
oc us
Ġm y
ĠA meric
Ġpot ential
ur y
Ġcomp ared
in ed
Ġac tiv
g n
Ġob s
Ġf am
Ġs et
Ġmaintain ing
Ġg i
Ġsh if
Ġre duc
Ġb u
Ġd ue
Ġs ch
re ad
Ġis s
in s
Ġp ri
l ed
Ġprac tical
i tion
Ġb i
e y
i tive
sel f
Ġ her
Ġcont ribut
Ġbec ame
Ġprocess es
or ies
b ers
Ġt e
Ġresp on
Ġf ocus
ul ations
Ġim m
I n
ec ess
Ġevid ence
Ġag ain
a us
Ġimp lement
Ġw ell
Ġconc ern
Ġcre ates
an e
Ġcre ating
Ġp ress
Ġestabl ish
ang u
Ġs ci
Ġcontin u
ĠW hen
b ility
Ġp ur
Ġus ing
Ġstand ard
ol s
ti ce
Ġre as
Ġre al
Ġadd ress
si ble
Ġpot entially
d u
Ġl if
Ġspec ial
al e
om m
Ġc ri
at ure
Ġpre c
Ġg l
Ġcomple te
Ġro le
Ġl ater
Ġad ap
Ġ1 8
en sion
ut ure
Ġo pp
Ġref lec
o st
Ġg e
ent ly
at h
ic es
g ing
Ġn orm
our ces
Ġcomm on
ĠS t
Ġtrans form
Ġs ti
Ġp ublic
Ġter ms
Ġf uture
Ġw ater
Ġenti re
) ,
Ġchallen ges
e tic
a f
is ts
Ġapp ears
Ġg ra
Ġs ol
x im
Ġun c
ar s
Ġs ec
Ġcre ated
Ġm us
Ġf ul
uc h
Ġout c
Ġint ere
Ġgovern ment
Ġl angu
Ġa round
Ġind ic
erg y
Ġm ater
ven ess
Ġc all
Ġg u
i v
Ġdes c
Ġen d
ly ing
Ġn ecess
pl oy
Ġha pp
ter s
ar m
Ġimp ro
in ce
Ġdiff ic
Ġlevel s
Ġme ans
se qu
od y
i x
f ore
ic ial
j ect
Ġdirect ly
Ġp resent
f or
Ġy ears
Ġab ility
Ġmat hem
Ġcomp re
Ġl ess
Ġeff ici
Ġreflec ts
Ġcom e
Ġsm all
Ġstr uc
Ġaff ect
Ġimp act
ĠU n
Ġcompre hen
Ġsim il
Ġprac tic
n g
os s
Ġwork s
ie ld
Ġ es
ar t
Ġpop ulation
Ġen g
Ġ 3
r ing
s y
Ġstruc tures
Ġtreat ment
Ġc al
enc ed
ti al
Ġcont ra
Ġch ild
ce p
ver se
uro pe
Ġen c
Ġinvol ve
ti veness
ti l
Ġagain st
Ġman age
Ġchan ge
Ġd yn
Ġse e
Ġe l
Ġsti ll
Ġsh ould
Ġmeas ure
Ġpat h
Ġh ig
Ġcomprehen sive
Ġta x
Ġm ade
di es
Ġthe ore
Ġf l
Ġm in