{
  "<|pad|>": 0,
  "<|unk|>": 1,
  "<|bos|>": 2,
  "<|eos|>": 3,
  "<|sep|>": 4,
  "!": 5,
  "\"": 6,
  "#": 7,
  "$": 8,
  "%": 9,
  "&": 10,
  "'": 11,
  "(": 12,
  ")": 13,
  "*": 14,
  "+": 15,
  ",": 16,
  "-": 17,
  ".": 18,
  "/": 19,
  "0": 20,
  "1": 21,
  "2": 22,
  "3": 23,
  "4": 24,
  "5": 25,
  "6": 26,
  "7": 27,
  "8": 28,
  "9": 29,
  ":": 30,
  ";": 31,
  "<": 32,
  "=": 33,
  ">": 34,
  "?": 35,
  "@": 36,
  "A": 37,
  "B": 38,
  "C": 39,
  "D": 40,
  "E": 41,
  "F": 42,
  "G": 43,
  "H": 44,
  "I": 45,
  "J": 46,
  "K": 47,
  "L": 48,
  "M": 49,
  "N": 50,
  "O": 51,
  "P": 52,
  "Q": 53,
  "R": 54,
  "S": 55,
  "T": 56,
  "U": 57,
  "V": 58,
  "W": 59,
  "X": 60,
  "Y": 61,
  "Z": 62,
  "[": 63,
  "\\": 64,
  "]": 65,
  "^": 66,
  "_": 67,
  "`": 68,
  "a": 69,
  "b": 70,
  "c": 71,
  "d": 72,
  "e": 73,
  "f": 74,
  "g": 75,
  "h": 76,
  "i": 77,
  "j": 78,
  "k": 79,
  "l": 80,
  "m": 81,
  "n": 82,
  "o": 83,
  "p": 84,
  "q": 85,
  "r": 86,
  "s": 87,
  "t": 88,
  "u": 89,
  "v": 90,
  "w": 91,
  "x": 92,
  "y": 93,
  "z": 94,
  "{": 95,
  "|": 96,
  "}": 97,
  "~": 98,
  "¡": 99,
  "¢": 100,
  "£": 101,
  "¤": 102,
  "¥": 103,
  "¦": 104,
  "§": 105,
  "¨": 106,
  "©": 107,
  "ª": 108,
  "«": 109,
  "¬": 110,
  "®": 111,
  "¯": 112,
  "°": 113,
  "±": 114,
  "²": 115,
  "³": 116,
  "´": 117,
  "µ": 118,
  "¶": 119,
  "·": 120,
  "¸": 121,
  "¹": 122,
  "º": 123,
  "»": 124,
  "¼": 125,
  "½": 126,
  "¾": 127,
  "¿": 128,
  "À": 129,
  "Á": 130,
  "Â": 131,
  "Ã": 132,
  "Ä": 133,
  "Å": 134,
  "Æ": 135,
  "Ç": 136,
  "È": 137,
  "É": 138,
  "Ê": 139,
  "Ë": 140,
  "Ì": 141,
  "Í": 142,
  "Î": 143,
  "Ï": 144,
  "Ð": 145,
  "Ñ": 146,
  "Ò": 147,
  "Ó": 148,
  "Ô": 149,
  "Õ": 150,
  "Ö": 151,
  "×": 152,
  "Ø": 153,
  "Ù": 154,
  "Ú": 155,
  "Û": 156,
  "Ü": 157,
  "Ý": 158,
  "Þ": 159,
  "ß": 160,
  "à": 161,
  "á": 162,
  "â": 163,
  "ã": 164,
  "ä": 165,
  "å": 166,
  "æ": 167,
  "ç": 168,
  "è": 169,
  "é": 170,
  "ê": 171,
  "ë": 172,
  "ì": 173,
  "í": 174,
  "î": 175,
  "ï": 176,
  "ð": 177,
  "ñ": 178,
  "ò": 179,
  "ó": 180,
  "ô": 181,
  "õ": 182,
  "ö": 183,
  "÷": 184,
  "ø": 185,
  "ù": 186,
  "ú": 187,
  "û": 188,
  "ü": 189,
  "ý": 190,
  "þ": 191,
  "ÿ": 192,
  "Ā": 193,
  "ā": 194,
  "Ă": 195,
  "ă": 196,
  "Ą": 197,
  "ą": 198,
  "Ć": 199,
  "ć": 200,
  "Ĉ": 201,
  "ĉ": 202,
  "Ċ": 203,
  "ċ": 204,
  "Č": 205,
  "č": 206,
  "Ď": 207,
  "ď": 208,
  "Đ": 209,
  "đ": 210,
  "Ē": 211,
  "ē": 212,
  "Ĕ": 213,
  "ĕ": 214,
  "Ė": 215,
  "ė": 216,
  "Ę": 217,
  "ę": 218,
  "Ě": 219,
  "ě": 220,
  "Ĝ": 221,
  "ĝ": 222,
  "Ğ": 223,
  "ğ": 224,
  "Ġ": 225,
  "ġ": 226,
  "Ģ": 227,
  "ģ": 228,
  "Ĥ": 229,
  "ĥ": 230,
  "Ħ": 231,
  "ħ": 232,
  "Ĩ": 233,
  "ĩ": 234,
  "Ī": 235,
  "ī": 236,
  "Ĭ": 237,
  "ĭ": 238,
  "Į": 239,
  "į": 240,
  "İ": 241,
  "ı": 242,
  "Ĳ": 243,
  "ĳ": 244,
  "Ĵ": 245,
  "ĵ": 246,
  "Ķ": 247,
  "ķ": 248,
  "ĸ": 249,
  "Ĺ": 250,
  "ĺ": 251,
  "Ļ": 252,
  "ļ": 253,
  "Ľ": 254,
  "ľ": 255,
  "Ŀ": 256,
  "ŀ": 257,
  "Ł": 258,
  "ł": 259,
  "Ń": 260,
  "Ġt": 261,
  "in": 262,
  "Ġa": 263,
  "he": 264,
  "re": 265,
  "on": 266,
  "ti": 267,
  "er": 268,
  "Ġc": 269,
  "en": 270,
  "al": 271,
  "Ġs": 272,
  "Ġthe": 273,
  "es": 274,
  "Ġp": 275,
  "or": 276,
  "an": 277,
  "at": 278,
  "is": 279,
  "ing": 280,
  "Ġw": 281,
  "tion": 282,
  "Ġd": 283,
  "Ġm": 284,
  "ic": 285,
  "ed": 286,
  "Ġin": 287,
  "Ġo": 288,
  "it": 289,
  "ar": 290,
  "Ġf": 291,
  "Ġb": 292,
  "ro": 293,
  "nd": 294,
  "le": 295,
  "ou": 296,
  "Ġre": 297,
  "Ġand": 298,
  "Ġth": 299,
  "ec": 300,
  "ly": 301,
  "Ġof": 302,
  "ent": 303,
  "om": 304,
  "Ġto": 305,
  "ation": 306,
  "Ġe": 307,
  "st": 308,
  "ve": 309,
  "Ġh": 310,
  "ac": 311,
  "Ġl": 312,
  "as": 313,
  "ol": 314,
  "Ġcon": 315,
  "et": 316,
  "if": 317,
  "ul": 318,
  "ig": 319,
  "il": 320,
  "Ġn": 321,
  "ur": 322,
  "im": 323,
  "ow": 324,
  "id": 325,
  "The": 326,
  "ce": 327,
  "se": 328,
  "tic": 329,
  "Ġthat": 330,
  "ment": 331,
  "ra": 332,
  "Ġcom": 333,
  "Ġpro": 334,
  "Ġg": 335,
  "ver": 336,
  "Ġst": 337,
  "Ġfor": 338,
  "Ġu": 339,
  "ir": 340,
  "ith": 341,
  "ter": 342,
  "'s": 343,
  "res": 344,
  "Ġmo": 345,
  "Ġwh": 346,
  "Ġwith": 347,
  "ts": 348,
  "em": 349,
  "ate": 350,
  "Ġbe": 351,
  "si": 352,
  "uc": 353,
  "ut": 354,
  "her": 355,
  "ot": 356,
  "pp": 357,
  "ical": 358,
  "Ġis": 359,
  "Ġas": 360,
  "ab": 361,
  "Ġex": 362,
  "ity": 363,
  "ain": 364,
  "qu": 365,
  "Ġcomp": 366,
  "Ġsp": 367,
  "Ġde": 368,
  "Ġon": 369,
  "Ġac": 370,
  "ere": 371,
  "op": 372,
  "ess": 373,
  "ad": 374,
  "am": 375,
  "ri": 376,
  "Ġv": 377,
  "ist": 378,
  "ke": 379,
  "ations": 380,
  "Ġit": 381,
  "Ġor": 382,
  "ld": 383,
  "ific": 384,
  "ĠThe": 385,
  "ure": 386,
  "tive": 387,
  "ge": 388,
  "Ġr": 389,
  "nt": 390,
  "di": 391,
  "ĠI": 392,
  "ers": 393,
  "oc": 394,
  "ally": 395,
  "Ġal": 396,
  "Ġy": 397,
  "and": 398,
  "out": 399,
  "ant": 400,
  "Ġch": 401,
  "us": 402,
  "rom": 403,
  "Ġan": 404,
  "el": 405,
  "ay": 406,
  "od": 407,
  "Ġab": 408,
  "Ġwhe": 409,
  "Ġapp": 410,
  "Ġspec": 411,
  "og": 412,
  "his": 413,
  "Ġsu": 414,
  "ĠT": 415,
  "Ġcan": 416,
  "Ġcont": 417,
  "Ġli": 418,
  "hi": 419,
  "tions": 420,
  "ff": 421,
  "Ġen": 422,
  "ould": 423,
  "per": 424,
  "um": 425,
  "Ġfrom": 426,
  "igh": 427,
  "Ġyou": 428,
  "ĠC": 429,
  "ĠS": 430,
  "ial": 431,
  "Ġare": 432,
  "rou": 433,
  "ĠA": 434,
  "gh": 435,
  "os": 436,
  "Ġpar": 437,
  "iz": 438,
  "Ġmore": 439,
  "Ġtheir": 440,
  "est": 441,
  "iff": 442,
  "ign": 443,
  "Ġim": 444,
  "Ġle": 445,
  "tu": 446,
  "Ġthis": 447,
  "Ġdiff": 448,
  "ch": 449,
  "th": 450,
  "ous": 451,
  "ther": 452,
  "Ġsy": 453,
  "ies": 454,
  "Ġad": 455,
  "lu": 456,
  "ary": 457,
  "pl": 458,
  "ated": 459,
  "Ġhe": 460,
  "ork": 461,
  "end": 462,
  "Ġlike": 463,
  "Ġwas": 464,
  "Ġabout": 465,
  "Ġ1": 466,
  "Ġby": 467,
  "ap": 468,
  "Ġrel": 469,
  "ence": 470,
  "Ġse": 471,
  "un": 472,
  "vid": 473,
  "Ġun": 474,
  "ance": 475,
  "Ġpr": 476,
  "Ġha": 477,
  "ĠThis": 478,
  "Ġ-": 479,
  "Ġbet": 480,
  "How": 481,
  "Ġint": 482,
  "vel": 483,
  "orm": 484,
  "ion": 485,
  "act": 486,
  "Ġne": 487,
  "Ġspecific": 488,
  "ome": 489,
  "Ġstr": 490,
  "Ġdiffere": 491,
  "all": 492,
  "ect": 493,
  "Ġinc": 494,
  "tical": 495,
  "enti": 496,
  "sion": 497,
  "ire": 498,
  "vol": 499,
  "Ġcons": 500,
  "ĠW": 501,
  "Ġthese": 502,
  "Ġtr": 503,
  "ges": 504,
  "ular": 505,
  "ven": 506,
  "Ġinf": 507,
  "ans": 508,
  "ates": 509,
  "ach": 510,
  "ich": 511,
  "stem": 512,
  "iti": 513,
  "ight": 514,
  "Ġcomple": 515,
  "ces": 516,
  "Ġthan": 517,
  "we": 518,
  "Ġres": 519,
  "ct": 520,
  "Ġpre": 521,
  "are": 522,
  "Ġma": 523,
  "Ġsh": 524,
  "Ġwould": 525,
  "ech": 526,
  "Ġsystem": 527,
  "Ġthey": 528,
  "ĠB": 529,
  "Ġimp": 530,
  "Ġappro": 531,
  "Ġat": 532,
  "ding": 533,
  "ult": 534,
  "ari": 535,
  "nder": 536,
  "ile": 537,
  "ine": 538,
  "ort": 539,
  "able": 540,
  "ĠM": 541,
  "ween": 542,
  "Ġbetween": 543,
  "ments": 544,
  "Ġhow": 545,
  "cess": 546,
  "ms": 547,
  "Ġrep": 548,
  "age": 549,
  "Ġwhich": 550,
  "Ġper": 551,
  "ors": 552,
  "Ġunder": 553,
  "rough": 554,
  "Ġsign": 555,
  "Ġbec": 556,
  "olog": 557,
  "Ġinter": 558,
  "str": 559,
  "Ġ\"": 560,
  "Ġhave": 561,
  "ves": 562,
  "tional": 563,
  "Ġme": 564,
  "Ġreg": 565,
  "Ġtra": 566,
  "Ġeff": 567,
  "Ġthrough": 568,
  "Ġwhen": 569,
  "ĠP": 570,
  "king": 571,
  "Ġcre": 572,
  "ever": 573,
  "Ġwhile": 574,
  "Ġother": 575,
  "Ġdo": 576,
  "our": 577,
  "Ġbut": 578,
  "resent": 579,
  "Ġdifferent": 580,
  "ong": 581,
  "ory": 582,
  "Ġdis": 583,
  "However": 584,
  "Ġpartic": 585,
  "tain": 586,
  "yp": 587,
  "Ġsignific": 588,
  "Ġind": 589,
  "ual": 590,
  "Ġcomplex": 591,
  "ĠE": 592,
  "ating": 593,
  "ility": 594,
  "ural": 595,
  "ĠH": 596,
  "Ġqu": 597,
  "Ġpo": 598,
  "duc": 599,
  "ard": 600,
  "Ġwork": 601,
  "ore": 602,
  "Ġar": 603,
  "Ġcl": 604,
  "Ġall": 605,
  "Ġnot": 606,
  "velop": 607,
  "Ġdet": 608,
  "ill": 609,
  "ust": 610,
  "Ġsignificant": 611,
  "Ġpol": 612,
  "Ġdevelop": 613,
  "ew": 614,
  "ail": 615,
  "Ġpl": 616,
  "Ġhis": 617,
  "hip": 618,
  "Ġrequ": 619,
  "Ġover": 620,
  "ci": 621,
  "ell": 622,
  "Ġj": 623,
  "ically": 624,
  "Ġcomm": 625,
  "av": 626,
  "ational": 627,
  "ather": 628,
  "ue": 629,
  "lic": 630,
  "ative": 631,
  "uring": 632,
  "oth": 633,
  "Ġparticular": 634,
  "ater": 635,
  "ĠR": 636,
  "Ġrepresent": 637,
  "ear": 638,
  "ved": 639,
  "tern": 640,
  "Ġwhere": 641,
  "Ġem": 642,
  "Ġinvol": 643,
  "Ġits": 644,
  "'t": 645,
  "hen": 646,
  "Ġgen": 647,
  "ĠG": 648,
  "ities": 649,
  "Ġman": 650,
  "ving": 651,
  "ple": 652,
  "Ġrem": 653,
  "Ġref": 654,
  "Ġsome": 655,
  "abl": 656,
  "Ġdist": 657,
  "ia": 658,
  "rib": 659,
  "ress": 660,
  "Ġrec": 661,
  "au": 662,
  "Ġmod": 663,
  "Ġco": 664,
  "ish": 665,
  "Ġwe": 666,
  "ĠF": 667,
  "Ġtyp": 668,
  "Ġsuc": 669,
  "Ġmet": 670,
  "ys": 671,
  "Ġ(": 672,
  "'m": 673,
  "ble": 674,
  "ast": 675,
  "Ġprovid": 676,
  "ram": 677,
  "Ġyour": 678,
  "Ġ2": 679,
  "Ġdes": 680,
  "ĠD": 681,
  "Ġpat": 682,
  "ph": 683,
  "Ġgo": 684,
  "Ġph": 685,
  "enc": 686,
  "ame": 687,
  "econ": 688,
  "Ġmain": 689,
  "li": 690,
  "Ġro": 691,
  "Ġrather": 692,
  "Ġus": 693,
  "Ġwhat": 694,
  "Ġdec": 695,
  "Ġprocess": 696,
  "Ġ19": 697,
  "Ġk": 698,
  "Ġser": 699,
  "ass": 700,
  "Ġinclu": 701,
  "Ġboth": 702,
  "ulti": 703,
  "Ġtrans": 704,
  "hes": 705,
  "Ġexp": 706,
  "ud": 707,
  "Ġapproach": 708,
  "ution": 709,
  "Ġeffec": 710,
  "Ġleg": 711,
  "ound": 712,
  "ĠL": 713,
  "Ġvari": 714,
  "ological": 715,
  "Ġfact": 716,
  "pend": 717,
  "uct": 718,
  "ern": 719,
  "ide": 720,
  "00": 721,
  "Ġwere": 722,
  "ite": 723,
  "Ġhas": 724,
  "Ġrequire": 725,
  "Ġactu": 726,
  "one": 727,
  "Ġchan": 728,
  "sive": 729,
  "ase": 730,
  "echan": 731,
  "Ġtim": 732,
  "Ġpe": 733,
  "Ġdi": 734,
  "Ġmechan": 735,
  "lec": 736,
  "ough": 737,
  "pt": 738,
  "Ġduring": 739,
  "und": 740,
  "Ġunderst": 741,
  "ace": 742,
  "ĠN": 743,
  "ount": 744,
  "form": 745,
  "ack": 746,
  "Ġsoc": 747,
  "ag": 748,
  "ased": 749,
  "Ġparticularly": 750,
  "'re": 751,
  "ause": 752,
  "mental": 753,
  "ros": 754,
  "Ġsub": 755,
  "Ġdem": 756,
  "Ġinflu": 757,
  "erm": 758,
  "Ġest": 759,
  "ex": 760,
  "Ġrelations": 761,
  "ati": 762,
  "ose": 763,
  "Ġhist": 764,
  "Ġprac": 765,
  "Ġdef": 766,
  "ents": 767,
  "ten": 768,
  "Ġsim": 769,
  "ized": 770,
  "econom": 771,
  "ord": 772,
  "Ġmay": 773,
  "te": 774,
  "Ġunderstand": 775,
  "ark": 776,
  "hed": 777,
  "This": 778,
  "Ġeconom": 779,
  "ric": 780,
  "Ġag": 781,
  "ateg": 782,
  "Ġconf": 783,
  "Ġmaintain": 784,
  "Ġestabl": 785,
  "Ġmight": 786,
  "Ġrelationship": 787,
  "ty": 788,
  "cur": 789,
  "ism": 790,
  "Ġfund": 791,
  "ting": 792,
  "Ġthem": 793,
  "hile": 794,
  "Ġtradi": 795,
  "ond": 796,
  "echn": 797,
  "Ġoper": 798,
  "anc": 799,
  "ious": 800,
  "ople": 801,
  "ision": 802,
  "Ġob": 803,
  "ross": 804,
  "sition": 805,
  "Ġremain": 806,
  "Ġdoes": 807,
  "Ġform": 808,
  "Ġpoli": 809,
  "Ġtechn": 810,
  "unc": 811,
  "ability": 812,
  "Ġsug": 813,
  "Ġsc": 814,
  "ĠU": 815,
  "Ġconsid": 816,
  "eed": 817,
  "Ġass": 818,
  "Ġpers": 819,
  "Ġneed": 820,
  "ood": 821,
  "low": 822,
  "Ġbro": 823,
  "Ġinto": 824,
  "ll": 825,
  "Ġsystems": 826,
  "aw": 827,
  "Ġele": 828,
  "ber": 829,
  "ens": 830,
  "Ġpeople": 831,
  "ang": 832,
  "Ġpattern": 833,
  "Ġcondi": 834,
  "Ġactually": 835,
  "ons": 836,
  "Ġpot": 837,
  "Ġdetail": 838,
  "Ġnat": 839,
  "Ġthough": 840,
  "Ġfactors": 841,
  "ful": 842,
  "Ġcould": 843,
  "Ġcol": 844,
  "Ġincluding": 845,
  "tim": 846,
  "atic": 847,
  "val": 848,
  "ree": 849,
  "ub": 850,
  "reat": 851,
  "ef": 852,
  "eg": 853,
  "Ġmeth": 854,
  "ential": 855,
  "Ġfunda": 856,
  "Ġsupp": 857,
  "ici": 858,
  "ures": 859,
  "Ġpolitical": 860,
  "Ġone": 861,
  "Ġdire": 862,
  "Ġout": 863,
  "ower": 864,
  "Ġcap": 865,
  "ry": 866,
  "so": 867,
  "allen": 868,
  "Ġcult": 869,
  "Ġmulti": 870,
  "Ġchallen": 871,
  "Ġeconomic": 872,
  "gan": 873,
  "Ġmethod": 874,
  "Ġif": 875,
  "Ġins": 876,
  "ĠJ": 877,
  "Ġcent": 878,
  "Ġexper": 879,
  "Ġfunc": 880,
  "ak": 881,
  "vers": 882,
  "Ġmed": 883,
  "Ġbroad": 884,
  "Ġgener": 885,
  "Ġfram": 886,
  "Ġdepend": 887,
  "arly": 888,
  "Ġaut": 889,
  "Ġstrateg": 890,
  "hat": 891,
  "now": 892,
  "Ġra": 893,
  "ren": 894,
  "Ġke": 895,
  "Ġevol": 896,
  "Ġbeen": 897,
  "Ġval": 898,
  "Ġhistor": 899,
  "ind": 900,
  "Ġbecause": 901,
  "Ġbeing": 902,
  "Ġchar": 903,
  "por": 904,
  "Ġstruct": 905,
  "titu": 906,
  "tiv": 907,
  "Ġalso": 908,
  "les": 909,
  "Ġresp": 910,
  "Ġwho": 911,
  "Ġacross": 912,
  "Ġques": 913,
  "Ġindi": 914,
  "dic": 915,
  "ization": 916,
  "Ġproduc": 917,
  "ears": 918,
  "isms": 919,
  "Ġhad": 920,
  "vern": 921,
  "Ġsocial": 922,
  "ep": 923,
  "Ġext": 924,
  "Ġperi": 925,
  "Ġlikely": 926,
  "ian": 927,
  "Ġproper": 928,
  "Ġso": 929,
  "ection": 930,
  "Ġcontro": 931,
  "Ġdevelopment": 932,
  "arch": 933,
  "ays": 934,
  "Ġthere": 935,
  "Ġpop": 936,
  "Ġter": 937,
  "vidual": 938,
  "Ġcr": 939,
  "Ġlegal": 940,
  "acter": 941,
  "ework": 942,
  "Ġoc": 943,
  "Ġframework": 944,
  "Ġconc": 945,
  "als": 946,
  "ice": 947,
  "iron": 948,
  "Ġsuch": 949,
  "Ġsur": 950,
  "Ġperiod": 951,
  "sure": 952,
  "ulation": 953,
  "Ġindividual": 954,
  "Ġbeh": 955,
  "Ġoff": 956,
  "ise": 957,
  "Ġeven": 958,
  "Ġanal": 959,
  "ĠHowever": 960,
  "ĠCh": 961,
  "omes": 962,
  "rent": 963,
  "Ġdirect": 964,
  "istic": 965,
  "ĠWhile": 966,
  "Ġbroader": 967,
  "ished": 968,
  "Ġmat": 969,
  "Ġwithin": 970,
  "Ġregion": 971,
  "Ġtime": 972,
  "Ġlead": 973,
  "ties": 974,
  "row": 975,
  "Ġgovern": 976,
  "erg": 977,
  "entially": 978,
  "round": 979,
  "Ġam": 980,
  "Ġdid": 981,
  "Ġmechanisms": 982,
  "ues": 983,
  "Ġquestion": 984,
  "Ġincre": 985,
  "Ġexpl": 986,
  "Ġconditions": 987,
  "Ġcur": 988,
  "ogn": 989,
  "its": 990,
  "Ġcultural": 991,
  "ared": 992,
  "Ġaff": 993,
  "sel": 994,
  "Ġadv": 995,
  "Ġlim": 996,
  "ĠK": 997,
  "Ġtypically": 998,
  "Ġprot": 999,
  "Ġprim": 1000,
  "Ġmost": 1001,
  "viron": 1002,
  "ered": 1003,
  "ior": 1004,
  "ately": 1005,
  "inal": 1006,
  "ings": 1007,
  "par": 1008,
  "ases": 1009,
  "Ġcommun": 1010,
  "Ġconsider": 1011,
  "Ġhistorical": 1012,
  "ie": 1013,
  "Ġenviron": 1014,
  "Ġcontin": 1015,
  "Ġrepresents": 1016,
  "de": 1017,
  "Ġknow": 1018,
  "very": 1019,
  "hem": 1020,
  "ps": 1021,
  "alth": 1022,
  "Ġmark": 1023,
  "Ġallow": 1024,
  "ency": 1025,
  "ertain": 1026,
  "Ġdifferen": 1027,
  "ines": 1028,
  "ĠO": 1029,
  "ination": 1030,
  "Ġunsure": 1031,
  "Ġacc": 1032,
  "Ġprovide": 1033,
  "rain": 1034,
  "Ġuse": 1035,
  "Ġinform": 1036,
  "Ġcharacter": 1037,
  "ward": 1038,
  "ted": 1039,
  "Ġrelig": 1040,
  "Ġexperi": 1041,
  "Ġdetailed": 1042,
  "Ġorgan": 1043,
  "Ġinfluence": 1044,
  "ob": 1045,
  "pe": 1046,
  "Ġoccur": 1047,
  "Ġfundamental": 1048,
  "ilit": 1049,
  "Ġpatterns": 1050,
  "ages": 1051,
  "Ġdistin": 1052,
  "Ġpres": 1053,
  "Ġcor": 1054,
  "Ġop": 1055,
  "Ġinvolves": 1056,
  "ks": 1057,
  "Ġwithout": 1058,
  "ited": 1059,
  "Ġimport": 1060,
  "Ġpart": 1061,
  "arg": 1062,
  "onstr": 1063,
  "Ġindeed": 1064,
  "Ġmultiple": 1065,
  "Ġkey": 1066,
  "Ġcount": 1067,
  "Ġpower": 1068,
  "vi": 1069,
  "aches": 1070,
  "ning": 1071,
  "rit": 1072,
  "Ġ20": 1073,
  "Ġhel": 1074,
  "ration": 1075,
  "Ġnum": 1076,
  "Ġlaw": 1077,
  "pre": 1078,
  "Ġnew": 1079,
  "Ġrese": 1080,
  "stan": 1081,
  "ology": 1082,
  "ects": 1083,
  "ild": 1084,
  "Ġtw": 1085,
  "mer": 1086,
  "Ġsugges": 1087,
  "ced": 1088,
  "Ġlong": 1089,
  "ran": 1090,
  "Ġvarious": 1091,
  "Ġatt": 1092,
  "Ġwhether": 1093,
  "Ġbl": 1094,
  "tively": 1095,
  "Ġvi": 1096,
  "Ġprin": 1097,
  "Ġta": 1098,
  "Ġhum": 1099,
  "Ġsuggests": 1100,
  "ied": 1101,
  "ality": 1102,
  "Ġstand": 1103,
  "Ġtraditional": 1104,
  "Ġmem": 1105,
  "Ġdemonstr": 1106,
  "Ġmeas": 1107,
  "ribut": 1108,
  "Ġmaking": 1109,
  "Ġloc": 1110,
  "Ġjust": 1111,
  "Ġsever": 1112,
  "Ġreligious": 1113,
  "oun": 1114,
  "Ġsignificantly": 1115,
  "Ġmake": 1116,
  "Ġprog": 1117,
  "Ġhigh": 1118,
  "Ġconn": 1119,
  "ize": 1120,
  "Ġcontrol": 1121,
  "Ġcontex": 1122,
  "ĠV": 1123,
  "Ġstu": 1124,
  "Ġanalys": 1125,
  "Ġbehav": 1126,
  "Ġsame": 1127,
  "Ġno": 1128,
  "Ġdat": 1129,
  "Ġlevel": 1130,
  "irst": 1131,
  "oy": 1132,
  "ĠIn": 1133,
  "Ġestablished": 1134,
  "red": 1135,
  "Ġcomb": 1136,
  "wn": 1137,
  "Ġup": 1138,
  "Ġapproaches": 1139,
  "raph": 1140,
  "Ġinformation": 1141,
  "hy": 1142,
  "ences": 1143,
  "ĠThese": 1144,
  "Ġgrou": 1145,
  "Ġmean": 1146,
  "old": 1147,
  "ade": 1148,
  "Ġprinci": 1149,
  "Ġdesign": 1150,
  "Ġoften": 1151,
  "ru": 1152,
  "Ġstructure": 1153,
  "omet": 1154,
  "Ġdefin": 1155,
  "Ġpolic": 1156,
  "Ġsuccess": 1157,
  "Ġsit": 1158,
  "Ġproble": 1159,
  "entif": 1160,
  "Ġmodern": 1161,
  "Ġanalysis": 1162,
  "Ġid": 1163,
  "Ġspecif": 1164,
  "tures": 1165,
  "hor": 1166,
  "Ġsupport": 1167,
  "Ġwill": 1168,
  "Ġchanges": 1169,
  "irc": 1170,
  "Ġany": 1171,
  "Ġevolution": 1172,
  "arily": 1173,
  "sts": 1174,
  "fter": 1175,
  "Ġmodel": 1176,
  "Ġdeterm": 1177,
  "ption": 1178,
  "Ġperson": 1179,
  "erv": 1180,
  "vent": 1181,
  "Ġhealth": 1182,
  "ip": 1183,
  "Ġstate": 1184,
  "iqu": 1185,
  "Ġequ": 1186,
  "Ġtwo": 1187,
  "ness": 1188,
  "Ġresearch": 1189,
  "Ġeach": 1190,
  "ected": 1191,
  "tis": 1192,
  "int": 1193,
  "Ġperform": 1194,
  "Ġdata": 1195,
  "Ġseveral": 1196,
  "Ġshow": 1197,
  "What": 1198,
  "not": 1199,
  "Ġmarket": 1200,
  "Ġcar": 1201,
  "uro": 1202,
  "Ġthose": 1203,
  "ublic": 1204,
  "Ġearly": 1205,
  "Ġben": 1206,
  "min": 1207,
  "ilitary": 1208,
  "Ġtreat": 1209,
  "ression": 1210,
  "lement": 1211,
  "Ġinteg": 1212,
  "Ġfound": 1213,
  "Ġspecifically": 1214,
  "ics": 1215,
  "Ġfin": 1216,
  "Ġmove": 1217,
  "ily": 1218,
  "Ġwhy": 1219,
  "Ġfol": 1220,
  "Ġcurrent": 1221,
  "ron": 1222,
  "jor": 1223,
  "ights": 1224,
  "Ġcell": 1225,
  "Ġadd": 1226,
  "Ġevid": 1227,
  "Ġsm": 1228,
  "Ġused": 1229,
  "Ġgrow": 1230,
  "Ġget": 1231,
  "Ġdisc": 1232,
  "Ġintern": 1233,
  "Ġmilitary": 1234,
  "arding": 1235,
  "Ġess": 1236,
  "Ġwor": 1237,
  "ands": 1238,
  "Ġclass": 1239,
  "Ġposition": 1240,
  "ral": 1241,
  "Ġexist": 1242,
  "Ġtem": 1243,
  "ograph": 1244,
  "Ġremains": 1245,
  "Ġimportant": 1246,
  "Ġcannot": 1247,
  "Ġmany": 1248,
  "Ġdecision": 1249,
  "acy": 1250,
  "ering": 1251,
  "Ġafter": 1252,
  "cept": 1253,
  "Ġmajor": 1254,
  "Ġown": 1255,
  "Ġenti": 1256,
  "yond": 1257,
  "Ġrecogn": 1258,
  "oo": 1259,
  "Ġfirst": 1260,
  "meric": 1261,
  "Ġfe": 1262,
  "Ġav": 1263,
  "iter": 1264,
  "Ġhelp": 1265,
  "hie": 1266,
  "Ġdon": 1267,
  "Ġphys": 1268,
  "Ġsym": 1269,
  "Ġcertain": 1270,
  "Ġbecome": 1271,
  "yn": 1272,
  "lect": 1273,
  "atory": 1274,
  "Ġnature": 1275,
  "Ġmon": 1276,
  "Ġonly": 1277,
  "Ġcompar": 1278,
  "Ġris": 1279,
  "Ġauthor": 1280,
  "Ġbeyond": 1281,
  "ining": 1282,
  "Ġbenef": 1283,
  "ety": 1284,
  "hing": 1285,
  "Ġfunction": 1286,
  "Ġapplic": 1287,
  "ants": 1288,
  "So": 1289,
  "Ġelect": 1290,
  "Ġfac": 1291,
  "Ġfollow": 1292,
  "ication": 1293,
  "Ġsitu": 1294,
  "Ġdoc": 1295,
  "Ġcirc": 1296,
  "Ġbehavior": 1297,
  "titutional": 1298,
  "Ġunderstanding": 1299,
  "Ġiniti": 1300,
  "ying": 1301,
  "ries": 1302,
  "Ġed": 1303,
  "Ġorig": 1304,
  "me": 1305,
  "ilities": 1306,
  "Ġexam": 1307,
  "Ġbased": 1308,
  "lear": 1309,
  "Ġachie": 1310,
  "Ġwar": 1311,
  "Ġprof": 1312,
  "Ġcreate": 1313,
  "omen": 1314,
  "Ġmethods": 1315,
  "Ġhuman": 1316,
  "ective": 1317,
  "Ġbetter": 1318,
  "ital": 1319,
  "ples": 1320,
  "Ġpredic": 1321,
  "Ġcare": 1322,
  "ocus": 1323,
  "Ġmy": 1324,
  "ĠAmeric": 1325,
  "Ġpotential": 1326,
  "ury": 1327,
  "Ġcompared": 1328,
  "ined": 1329,
  "Ġactiv": 1330,
  "gn": 1331,
  "Ġobs": 1332,
  "Ġset": 1333,
  "Ġfam": 1334,
  "Ġmaintaining": 1335,
  "Ġgi": 1336,
  "Ġshif": 1337,
  "Ġreduc": 1338,
  "Ġbu": 1339,
  "Ġdue": 1340,
  "Ġsch": 1341,
  "read": 1342,
  "ins": 1343,
  "Ġiss": 1344,
  "Ġpri": 1345,
  "led": 1346,
  "ition": 1347,
  "Ġpractical": 1348,
  "Ġbi": 1349,
  "ey": 1350,
  "itive": 1351,
  "self": 1352,
  "Ġher": 1353,
  "Ġcontribut": 1354,
  "ories": 1355,
  "Ġbecame": 1356,
  "Ġprocesses": 1357,
  "Ġte": 1358,
  "bers": 1359,
  "Ġrespon": 1360,
  "Ġfocus": 1361,
  "ulations": 1362,
  "Ġimm": 1363,
  "In": 1364,
  "Ġevidence": 1365,
  "ecess": 1366,
  "Ġagain": 1367,
  "aus": 1368,
  "Ġimplement": 1369,
  "Ġwell": 1370,
  "Ġconcern": 1371,
  "Ġcreates": 1372,
  "ane": 1373,
  "Ġcreating": 1374,
  "Ġpress": 1375,
  "angu": 1376,
  "Ġestablish": 1377,
  "Ġsci": 1378,
  "Ġcontinu": 1379,
  "bility": 1380,
  "Ġpur": 1381,
  "ĠWhen": 1382,
  "Ġusing": 1383,
  "Ġstandard": 1384,
  "ols": 1385,
  "tice": 1386,
  "Ġreas": 1387,
  "Ġreal": 1388,
  "sible": 1389,
  "Ġaddress": 1390,
  "Ġpotentially": 1391,
  "du": 1392,
  "Ġlif": 1393,
  "Ġspecial": 1394,
  "ale": 1395,
  "omm": 1396,
  "Ġcri": 1397,
  "ature": 1398,
  "Ġprec": 1399,
  "Ġcomplete": 1400,
  "Ġrole": 1401,
  "Ġgl": 1402,
  "Ġlater": 1403,
  "Ġadap": 1404,
  "uture": 1405,
  "Ġ18": 1406,
  "Ġreflec": 1407,
  "ension": 1408,
  "Ġopp": 1409,
  "Ġge": 1410,
  "ost": 1411,
  "ently": 1412,
  "ath": 1413,
  "ging": 1414,
  "ices": 1415,
  "Ġnorm": 1416,
  "ources": 1417,
  "Ġcommon": 1418,
  "ĠSt": 1419,
  "Ġsti": 1420,
  "Ġfuture": 1421,
  "Ġtransform": 1422,
  "Ġpublic": 1423,
  "Ġterms": 1424,
  "Ġwater": 1425,
  "Ġentire": 1426,
  "),": 1427,
  "etic": 1428,
  "Ġchallenges": 1429,
  "af": 1430,
  "ists": 1431,
  "Ġappears": 1432,
  "Ġgra": 1433,
  "Ġsol": 1434,
  "Ġunc": 1435,
  "xim": 1436,
  "ars": 1437,
  "Ġsec": 1438,
  "Ġmus": 1439,
  "Ġcreated": 1440,
  "Ġful": 1441,
  "uch": 1442,
  "Ġintere": 1443,
  "Ġoutc": 1444,
  "Ġgovernment": 1445,
  "Ġlangu": 1446,
  "Ġaround": 1447,
  "Ġindic": 1448,
  "ergy": 1449,
  "Ġmater": 1450,
  "veness": 1451,
  "Ġcall": 1452,
  "Ġgu": 1453,
  "iv": 1454,
  "Ġdesc": 1455,
  "Ġend": 1456,
  "lying": 1457,
  "Ġnecess": 1458,
  "ploy": 1459,
  "Ġhapp": 1460,
  "ters": 1461,
  "Ġimpro": 1462,
  "arm": 1463,
  "Ġdiffic": 1464,
  "ince": 1465,
  "Ġlevels": 1466,
  "Ġmeans": 1467,
  "ody": 1468,
  "sequ": 1469,
  "ix": 1470,
  "fore": 1471,
  "ject": 1472,
  "Ġdirectly": 1473,
  "Ġpresent": 1474,
  "icial": 1475,
  "for": 1476,
  "Ġyears": 1477,
  "Ġmathem": 1478,
  "Ġability": 1479,
  "Ġcompre": 1480,
  "Ġless": 1481,
  "Ġreflects": 1482,
  "Ġcome": 1483,
  "Ġeffici": 1484,
  "Ġsmall": 1485,
  "Ġstruc": 1486,
  "Ġaffect": 1487,
  "Ġimpact": 1488,
  "Ġcomprehen": 1489,
  "ĠUn": 1490,
  "Ġsimil": 1491,
  "Ġpractic": 1492,
  "ield": 1493,
  "ng": 1494,
  "oss": 1495,
  "Ġworks": 1496,
  "Ġes": 1497,
  "art": 1498,
  "Ġpopulation": 1499,
  "Ġeng": 1500,
  "Ġ3": 1501,
  "ring": 1502,
  "sy": 1503,
  "Ġtreatment": 1504,
  "Ġstructures": 1505,
  "Ġcal": 1506,
  "enced": 1507,
  "tial": 1508,
  "verse": 1509,
  "Ġcontra": 1510,
  "urope": 1511,
  "cep": 1512,
  "Ġchild": 1513,
  "Ġenc": 1514,
  "Ġinvolve": 1515,
  "tiveness": 1516,
  "til": 1517,
  "Ġagainst": 1518,
  "Ġchange": 1519,
  "Ġmanage": 1520,
  "Ġdyn": 1521,
  "Ġsee": 1522,
  "Ġel": 1523,
  "Ġstill": 1524,
  "Ġshould": 1525,
  "Ġmeasure": 1526,
  "Ġpath": 1527,
  "Ġhig": 1528,
  "Ġtax": 1529,
  "Ġcomprehensive": 1530,
  "Ġmade": 1531,
  "dies": 1532,
  "Ġtheore": 1533,
  "Ġfl": 1534,
  "pos": 1535
}
